TRT-101401-EntropyCalibration2
images: 3c010a14
/model.0/conv/Conv_output_0: 3e811804
/model.0/act/Sigmoid_output_0: 3c010a14
/model.0/act/Mul_output_0: 3e1314e4
/model.1/conv/Conv_output_0: 3f153877
/model.1/act/Sigmoid_output_0: 3c010a14
/model.1/act/Mul_output_0: 3ec1f0ae
/model.2/cv1/conv/Conv_output_0: 3eae6476
/model.2/cv1/act/Sigmoid_output_0: 3c010a14
/model.2/cv1/act/Mul_output_0: 3dc559d8
/model.22/Sub_output_0: 3f1ff6fa
/model.22/cv3.1/cv3.1.2/Conv_output_0: 3e7c17d2
ONNXTRT_ShapeShuffle_197_output: 3c010a14
/model.19/act/Sigmoid_output_0: 3c02b6ee
/model.21/cv1/conv/Conv_output_0: 3d9b0212
/model.22/cv3.1/cv3.1.0/conv/Conv_output_0: 3da322e2
/model.2/Split_output_0: 3dc559d8
/model.21/m.0/cv2/act/Sigmoid_output_0: 3c0ac33a
/model.22/cv2.1/cv2.1.1/act/Sigmoid_output_0: 3c010a14
/model.22/cv3.1/cv3.1.1/conv/Conv_output_0: 3ebb3d10
/model.2/Split_output_1: 3d8f3e54
/model.2/m.0/cv1/conv/Conv_output_0: 3e80cc96
/model.2/m.0/cv1/act/Sigmoid_output_0: 3c010a14
/model.2/m.0/cv1/act/Mul_output_0: 3dc76c08
/model.2/m.0/cv2/conv/Conv_output_0: 3e46aade
/model.2/m.0/cv2/act/Sigmoid_output_0: 3c010a14
/model.2/m.0/cv2/act/Mul_output_0: 3dd0bbea
/model.2/m.0/Add_output_0: 3e30a403
/model.2/Concat_output_0: 3e0e52dc
/model.2/cv2/conv/Conv_output_0: 3e3240cf
/model.2/cv2/act/Sigmoid_output_0: 3c010a14
/model.2/cv2/act/Mul_output_0: 3d414bb2
/model.3/conv/Conv_output_0: 3d95d9d2
/model.3/act/Sigmoid_output_0: 3c007aa6
/model.3/act/Mul_output_0: 3d27cd23
/model.4/cv1/conv/Conv_output_0: 3d8cf183
/model.4/cv1/act/Sigmoid_output_0: 3c00c85d
/model.4/cv1/act/Mul_output_0: 3ce69383
/model.22/Concat_2_output_0: 3e86cd50
/model.22/Transpose_output_0: 3f204a85
/model.22/cv2.2/cv2.2.1/act/Mul_output_0: 3e1cbf28
/model.22/dfl/Reshape_output_0: 3e1389c6
/model.22/Unsqueeze_12_output_0: 3f204a85
/model.22/cv2.2/cv2.2.0/act/Mul_output_0: 3d65c3a6
/model.4/Split_output_0: 3ce69383
/model.22/Mul_5_output_0: 40a098c2
/model.22/Concat_22_output_0: 3f204a85
/model.22/cv2.1/cv2.1.1/conv/Conv_output_0: 3e83f86e
/model.4/Split_output_1: 3ce6d99e
/model.4/m.0/cv1/conv/Conv_output_0: 3d46b0d2
/model.4/m.0/cv1/act/Sigmoid_output_0: 3c00839f
/model.4/m.0/cv1/act/Mul_output_0: 3cb25f81
/model.4/m.0/cv2/conv/Conv_output_0: 3d7a93c1
/model.4/m.0/cv2/act/Sigmoid_output_0: 3c002ff4
/model.4/m.0/cv2/act/Mul_output_0: 3ce6e408
/model.4/m.0/Add_output_0: 3d3e1bb8
/model.4/m.1/cv1/conv/Conv_output_0: 3d717a8d
/model.4/m.1/cv1/act/Sigmoid_output_0: 3bfe878c
/model.4/m.1/cv1/act/Mul_output_0: 3bf8f4a6
/model.4/m.1/cv2/conv/Conv_output_0: 3d9b213c
/model.4/m.1/cv2/act/Sigmoid_output_0: 3c00e972
/model.4/m.1/cv2/act/Mul_output_0: 3d41b8b5
/model.4/m.1/Add_output_0: 3d990efb
/model.4/Concat_output_0: 3d4047eb
/model.4/cv2/conv/Conv_output_0: 3d806775
/model.4/cv2/act/Sigmoid_output_0: 3c00adec
/model.4/cv2/act/Mul_output_0: 3cb33e57
/model.5/conv/Conv_output_0: 3d8abeb3
/model.5/act/Sigmoid_output_0: 3c0096c2
/model.5/act/Mul_output_0: 3cc31ee9
/model.6/cv1/conv/Conv_output_0: 3da0fd71
/model.6/cv1/act/Sigmoid_output_0: 3c00ce03
/model.6/cv1/act/Mul_output_0: 3d02c8e5
/model.22/dfl/conv/Conv_output_0: 3de4cbff
/model.22/Concat_20_output_0: 3e1d4449
/model.22/Reshape_17_output_0: 3e1d4449
/model.22/dfl/Transpose_1_output_0: 3bb15c45
/model.22/dfl/Reshape_1_output_0: 3de4cbff
/model.19/conv/Conv_output_0: 3d8eb50a
/model.6/Split_output_0: 3d02c8e5
/model.22/Unsqueeze_10_output_0: 3e1d4449
/model.22/Unsqueeze_9_output_0: 3e1d4449
/model.21/m.0/cv2/act/Mul_output_0: 3d10dd6a
/model.6/Split_output_1: 3c9b3441
/model.6/m.0/cv1/conv/Conv_output_0: 3d84b6b5
/model.6/m.0/cv1/act/Sigmoid_output_0: 3c00a0f3
/model.6/m.0/cv1/act/Mul_output_0: 3cb2f3fc
/model.6/m.0/cv2/conv/Conv_output_0: 3d5ddfee
/model.6/m.0/cv2/act/Sigmoid_output_0: 3c00488a
/model.6/m.0/cv2/act/Mul_output_0: 3cb0fb34
/model.6/m.0/Add_output_0: 3d307245
/model.6/m.1/cv1/conv/Conv_output_0: 3d72eaae
/model.6/m.1/cv1/act/Sigmoid_output_0: 3c0089c8
/model.6/m.1/cv1/act/Mul_output_0: 3ca66644
/model.6/m.1/cv2/conv/Conv_output_0: 3dac080e
/model.6/m.1/cv2/act/Sigmoid_output_0: 3c00f0f7
/model.6/m.1/cv2/act/Mul_output_0: 3d455376
/model.6/m.1/Add_output_0: 3d8d689e
/model.6/Concat_output_0: 3d248048
/model.6/cv2/conv/Conv_output_0: 3d6c2615
/model.6/cv2/act/Sigmoid_output_0: 3c00b8d2
/model.6/cv2/act/Mul_output_0: 3cb2c92c
/model.7/conv/Conv_output_0: 3d8c2e1f
/model.7/act/Sigmoid_output_0: 3c010b9a
/model.7/act/Mul_output_0: 3cc2a65f
/model.8/cv1/conv/Conv_output_0: 3db4e7be
/model.8/cv1/act/Sigmoid_output_0: 3c010a10
/model.8/cv1/act/Mul_output_0: 3ce7d8ae
/model.22/dfl/Softmax_output_0: 3bb15c45
/model.22/dfl/Softmax_output: 3bb15c45
/model.21/Split_output_0: 3cb42cbd
ONNXTRT_flattenTensor_output: 3e1389c6
/model.22/Reshape_2_output_0: 3e86cd50
/model.22/Unsqueeze_6_output_0: 3e9f4871
/model.8/Split_output_0: 3d10eedb
/model.22/cv2.2/cv2.2.1/conv/Conv_output_0: 3e9ffc99
/model.22/Squeeze_1_output_0_output: 3e010a14
/model.21/cv2/act/Mul_output_0: 3cb2a74e
/model.8/Split_output_1: 3ca6e9fa
/model.8/m.0/cv1/conv/Conv_output_0: 3da0f286
/model.8/m.0/cv1/act/Sigmoid_output_0: 3c0109af
/model.8/m.0/cv1/act/Mul_output_0: 3cc29eca
/model.8/m.0/cv2/conv/Conv_output_0: 3df67cde
/model.8/m.0/cv2/act/Sigmoid_output_0: 3c01121f
/model.8/m.0/cv2/act/Mul_output_0: 3d2482c8
/model.8/m.0/Add_output_0: 3da4627b
/model.8/Concat_output_0: 3d29a63d
/model.8/cv2/conv/Conv_output_0: 3db028a3
/model.8/cv2/act/Sigmoid_output_0: 3c0107f5
/model.8/cv2/act/Mul_output_0: 3cea7581
/model.9/cv1/conv/Conv_output_0: 3d5e0d8a
/model.9/cv1/act/Sigmoid_output_0: 3c007048
/model.9/cv1/act/Mul_output_0: 3d6686b9
/model.9/m/MaxPool_output_0: 3d6686b9
/model.9/m_1/MaxPool_output_0: 3d6686b9
/model.9/m_2/MaxPool_output_0: 3d6686b9
/model.9/Concat_output_0: 3d68eada
/model.9/cv2/conv/Conv_output_0: 3d81fc31
/model.9/cv2/act/Sigmoid_output_0: 3c006789
/model.9/cv2/act/Mul_output_0: 3cc42a2d
/model.10/Resize_output_0: 3cc42a2d
/model.11/Concat_output_0: 3cb2c92c
/model.12/cv1/conv/Conv_output_0: 3d8a03ea
/model.12/cv1/act/Sigmoid_output_0: 3c00d00c
/model.12/cv1/act/Mul_output_0: 3cbf9076
/model.22/Slice_output_0: 3de4cbff
/model.22/Range_2_output_0: 3e9d4449
output0: 40a098c2
/model.22/Expand_5_output_0: 3e1d4449
/model.22/cv3.2/cv3.2.2/Conv_output_0: 3e8c2973
/model.22/Reshape_13_output_0: 3e1d4449
/model.12/Split_output_0: 3cbf9076
/model.22/cv2.1/cv2.1.1/act/Mul_output_0: 3e150eb8
/model.22/ConstantOfShape_2_output_0: 0
/model.21/Split_output_1: 3cea164d
/model.12/Split_output_1: 3cd43cff
/model.12/m.0/cv1/conv/Conv_output_0: 3d99b4bf
/model.12/m.0/cv1/act/Sigmoid_output_0: 3c01ad8a
/model.12/m.0/cv1/act/Mul_output_0: 3c80203c
/model.12/m.0/cv2/conv/Conv_output_0: 3d82913c
/model.12/m.0/cv2/act/Sigmoid_output_0: 3c00d90b
/model.12/m.0/cv2/act/Mul_output_0: 3cc0243e
/model.12/Concat_output_0: 3cc0243e
/model.12/cv2/conv/Conv_output_0: 3d973978
/model.12/cv2/act/Sigmoid_output_0: 3c00ac23
/model.12/cv2/act/Mul_output_0: 3c878051
/model.13/Resize_output_0: 3c878051
/model.14/Concat_output_0: 3cb33e57
/model.15/cv1/conv/Conv_output_0: 3d813ae5
/model.15/cv1/act/Sigmoid_output_0: 3bfe9e62
/model.15/cv1/act/Mul_output_0: 3cb1146b
/model.21/m.0/cv1/conv/Conv_output_0: 3d8c36f7
/model.22/cv3.1/cv3.1.0/act/Sigmoid_output_0: 3c00ebdd
/model.22/Div_1_output_0: 3f2a81ad
/model.22/cv3.1/cv3.1.1/act/Mul_output_0: 3dbf1dc4
/model.22/Concat_1_output_0: 3e7c17d2
/model.22/cv3.1/cv3.1.1/act/Sigmoid_output_0: 3c010a14
/model.15/Split_output_0: 3c900d6a
/model.22/Reshape_1_output_0: 3e7c17d2
/model.22/cv3.2/cv3.2.0/conv/Conv_output_0: 3e02823a
/model.22/cv3.2/cv3.2.1/act/Mul_output_0: 3e2f8664
/model.15/Split_output_1: 3ca5654a
/model.15/m.0/cv1/conv/Conv_output_0: 3d33257c
/model.15/m.0/cv1/act/Sigmoid_output_0: 3bfd7fcb
/model.15/m.0/cv1/act/Mul_output_0: 3c734b5a
/model.15/m.0/cv2/conv/Conv_output_0: 3d55d5ed
/model.15/m.0/cv2/act/Sigmoid_output_0: 3c0021ca
/model.15/m.0/cv2/act/Mul_output_0: 3d014275
/model.15/Concat_output_0: 3ce8c311
/model.15/cv2/conv/Conv_output_0: 3d5d4e9f
/model.15/cv2/act/Sigmoid_output_0: 3bff8d4d
/model.15/cv2/act/Mul_output_0: 3cb1680f
/model.16/conv/Conv_output_0: 3d60887c
/model.22/cv2.0/cv2.0.0/conv/Conv_output_0: 3dc8188c
/model.22/cv3.0/cv3.0.0/conv/Conv_output_0: 3d98467c
/model.16/act/Sigmoid_output_0: 3c0088f1
/model.22/cv2.0/cv2.0.0/act/Sigmoid_output_0: 3c00fd66
/model.22/cv3.0/cv3.0.0/act/Sigmoid_output_0: 3c008fa3
/model.16/act/Mul_output_0: 3cd3955b
/model.22/cv2.0/cv2.0.0/act/Mul_output_0: 3cc27322
/model.22/cv3.0/cv3.0.0/act/Mul_output_0: 3c8035d6
/model.17/Concat_output_0: 3ca68d11
/model.22/cv2.0/cv2.0.1/conv/Conv_output_0: 3e74340d
/model.22/cv3.0/cv3.0.1/conv/Conv_output_0: 3e771994
/model.18/cv1/conv/Conv_output_0: 3d828856
/model.22/cv2.0/cv2.0.1/act/Sigmoid_output_0: 3c010a14
/model.22/cv3.0/cv3.0.1/act/Sigmoid_output_0: 3c010a14
/model.18/cv1/act/Sigmoid_output_0: 3c00a7dd
/model.22/cv2.0/cv2.0.1/act/Mul_output_0: 3e0fa3bc
/model.22/cv3.0/cv3.0.1/act/Mul_output_0: 3e19a7e7
/model.18/cv1/act/Mul_output_0: 3cb19117
/model.22/cv2.0/cv2.0.2/Conv_output_0: 3e1389c6
/model.22/cv3.0/cv3.0.2/Conv_output_0: 3e466731
/model.21/m.0/cv1/act/Mul_output_0: 3c9a9928
/model.22/Unsqueeze_7_output_0: 3e9f4871
/model.21/m.0/cv1/act/Sigmoid_output_0: 3c005735
tmp_refittable_weight_0_output: 0
ONNXTRT_Broadcast_207_output: 3e010a14
/model.22/cv2.2/cv2.2.0/act/Sigmoid_output_0: 3c0111eb
/model.18/Split_output_0: 3cb162fd
/model.22/dfl/Transpose_output_0: 3e1389c6
/model.22/Constant_56_output_0_output: 3c810a14
/model.22/Transpose_1_output_0: 3e810a14
/model.18/Split_output_1: 3cd2e8db
/model.22/Concat_output_0: 3e446135
/model.18/m.0/cv1/conv/Conv_output_0: 3d7b5803
/model.21/m.0/cv2/conv/Conv_output_0: 3db44977
/model.22/Reshape_11_output_0: 3e9f4871
/model.18/m.0/cv1/act/Sigmoid_output_0: 3c005f88
/model.22/Sub_1_output_0: 3e63395b
ONNXTRT_Broadcast_200_output: 3b810a14
ONNXTRT_Broadcast_292_output: 3e810a14
/model.22/Reshape_12_output_0: 3e9f4871
/model.22/Range_3_output_0: 3e9d4449
/model.22/Reshape_7_output_0: 3f204a85
/model.18/m.0/cv1/act/Mul_output_0: 3c88c358
/model.22/Reshape_16_output_0: 3e1d4449
/model.21/cv2/conv/Conv_output_0: 3e089b1e
/model.22/cv3.1/cv3.1.0/act/Mul_output_0: 3cd4dc73
/model.22/cv3.2/cv3.2.1/conv/Conv_output_0: 3ee32338
/model.22/cv2.1/cv2.1.0/act/Mul_output_0: 3d24ea5d
/model.18/m.0/cv2/conv/Conv_output_0: 3dac777b
/model.22/Concat_23_output_0: 3e810a14
/model.22/cv3.2/cv3.2.1/act/Sigmoid_output_0: 3c010a14
/model.22/Add_8_output_0: 3e810a14
/model.22/Constant_10_output_0_output: 0
/model.22/Constant_11_output_0_output: 3c010a14
/model.22/Expand_4_output_0: 3e1d4449
ONNXTRT_Broadcast_285_output: 3b810a14
/model.22/Reshape_14_output_0: 3e1d4449
/model.22/cv3.2/cv3.2.0/act/Mul_output_0: 3d0046cd
ONNXTRT_Broadcast_283_output: 3b810a14
/model.22/Sigmoid_output_0: 3adf8fc2
/model.22/Slice_1_output_0: 3ddfb244
/model.22/Range_output_0: 3f1f4871
ONNXTRT_ShapeShuffle_104_output: 3c010a14
/model.21/cv2/act/Sigmoid_output_0: 3c07536f
ONNXTRT_ShapeShuffle_287_output: 0
tmp_refittable_weight_1_output: 0
/model.22/Add_10_output_0: 3f21c257
/model.22/Reshape_9_output_0: 3e9f4871
/model.22/cv2.1/cv2.1.0/conv/Conv_output_0: 3dde43a9
/model.19/act/Mul_output_0: 3c99ceb5
/model.22/Range_1_output_0: 3f1f4871
ONNXTRT_ShapeShuffle_114_output: 3c010a14
/model.22/Reshape_15_output_0: 3e1d4449
/model.22/cv3.2/cv3.2.0/act/Sigmoid_output_0: 3c020cda
/model.18/m.0/cv2/act/Sigmoid_output_0: 3c06345e
/model.22/Reshape_output_0: 3e446135
/model.22/Constant_12_output_0_output: 3b810a14
ONNXTRT_Broadcast_output: 3b810a14
/model.22/Reshape_4_output_0: 3f204a85
ONNXTRT_Broadcast_119_output: 3b810a14
/model.22/Reshape_3_output_0: 3f204a85
/model.22/Concat_6_output_0: 3e60392c
ONNXTRT_ShapeShuffle_187_output: 3c010a14
/model.18/m.0/cv2/act/Mul_output_0: 3d1375b1
tmp_refittable_weight_output: 0
ONNXTRT_ShapeShuffle_121_output: 0
/model.22/ConstantOfShape_output_0: 0
/model.22/cv2.2/cv2.2.2/Conv_output_0: 3dd7555a
ONNXTRT_Broadcast_202_output: 3b810a14
/model.22/Unsqueeze_4_output_0: 3f204a85
/model.20/Concat_output_0: 3c99ceb5
/model.18/Concat_output_0: 3d02e2a4
/model.22/Squeeze_output_0_output: 3d810a14
ONNXTRT_Broadcast_124_output: 3d810a14
/model.22/Add_2_output_0: 3d810a14
/model.21/cv1/act/Mul_output_0: 3cb3ae32
/model.22/Squeeze_2_output_0_output: 3e810a14
/model.22/Concat_24_output_0: 3f2504dc
/model.18/cv2/conv/Conv_output_0: 3d9d92c1
/model.22/Reshape_5_output_0: 3f204a85
/model.22/Reshape_6_output_0: 3f204a85
/model.18/cv2/act/Sigmoid_output_0: 3c000d95
/model.22/Add_11_output_0: 3faa81ad
ONNXTRT_ShapeShuffle_280_output: 3c010a14
/model.22/Range_5_output_0: 3e193bf8
/model.22/Expand_3_output_0: 3e9f4871
/model.22/cv2.2/cv2.2.0/conv/Conv_output_0: 3de1ea1a
/model.22/cv2.2/cv2.2.1/act/Sigmoid_output_0: 3c010a14
/model.22/Unsqueeze_3_output_0: 3f204a85
ONNXTRT_ShapeShuffle_204_output: 0
/model.22/Expand_2_output_0: 3e9f4871
/model.22/ConstantOfShape_1_output_0: 0
ONNXTRT_ShapeShuffle_270_output: 3c010a14
/model.22/Concat_15_output_0: 3e9f4871
/model.22/Expand_output_0: 3f204a85
/model.22/Range_4_output_0: 3e193bf8
/model.22/Reshape_8_output_0: 3e9f4871
ONNXTRT_Broadcast_426_output: 3e810a14
/model.22/Concat_10_output_0: 3f204a85
/model.22/Reshape_10_output_0: 3e9f4871
ONNXTRT_Broadcast_419_output: 3c810a14
/model.21/Concat_output_0: 3cd41062
/model.21/cv1/act/Sigmoid_output_0: 3c00c4cb
/model.22/Add_5_output_0: 3e010a14
/model.22/Split_1_output_1: 3e6a95fa
/model.22/cv2.1/cv2.1.2/Conv_output_0: 3dfe9e63
/model.22/Split_1_output_0: 3e1389c6
/model.22/Expand_1_output_0: 3f204a85
/model.18/cv2/act/Mul_output_0: 3c912f8d
/model.22/cv2.1/cv2.1.0/act/Sigmoid_output_0: 3c010b19
